5a
39
2d
13
72
26
1b
2e
53
14
2e
3e
5
1a
8
7c
68
26
1f
8
20
1
07
23
74
35
60
60
4c
64
71
27
21
41
10
a
6a
2f
38
29
66
29
55
10
22
1b
47
b
6a
2a
5c
3c
57
2
0e
2e
22
48
07
26
5e
4e
66
50
5a
39
2d
13
72
26
1b
2e
53
14
2e
3e
5
1a
8
7c
68
26
1f
8
20
1
07
23
74
35
60
60
4c
64
71
27
21
41
10
a
6a
2f
38
29
66
29
55
10
22
1b
47
b
6a
2a
5c
3c
57
2
0e
2e
22
48
07
26
5e
4e
66
50
0e
2e
22
48
07
26
5e
4e